@@UNKNOWN@@
,
@start@
@end@
.
▁в
▁и
▁на
▁«
▁не
▁по
▁с
▁—
▁что
»
-
ли
▁за
л
▁у
т
▁о
м
»,
ть
но
▁а
на
ла
с
▁из
▁от
к
ми
в
▁к
ка
▁при
н
▁до
та
».
ки
не
е
х
▁но
я
р
ной
ет
ных
ра
д
ле
ло
да
ва
▁как
то
й
ю
▁вы
ти
▁про
▁он
▁(
у
ль
ко
ни
▁со
▁для
▁это
ма
ны
га
ро
ку
▁
ного
▁его
о
те
ния
ке
ные
ре
▁то
и
з
▁во
го
за
:
▁года
де
п
ние
ри
ный
лся
▁об
са
▁все
ме
г
ться
ты
▁ли
▁раз
ном
▁также
▁после
▁,
до
б
ди
▁россии
чи
ви
ным
▁ко
▁под
мо
ров
ну
лись
тов
во
▁ка
ется
▁пере
ля
ского
▁же
ру
▁–
а
ской
▁я
ют
ш
ст
▁мо
по
ное
ная
му
ду
▁будет
ж
нии
▁уже
ба
ча
ве
э
ч
тель
ем
ции
▁так
ков
че
▁ре
ги
бо
▁этом
▁был
▁ма
1
се
▁году
)
▁было
ский
ности
сти
ста
си
кой
лась
ры
ф
▁еще
со
ний
же
ную
e
▁да
ство
вать
▁бы
мы
▁время
зи
хо
жа
▁па
5
ся
▁мы
па
тся
жи
вой
ства
0
би
8
▁только
нов
ту
▁того
ность
бе
ня
4
▁они
▁том
▁сша
2
▁их
▁те
▁который
▁которые
▁пре
лось
▁ви
▁го
%
▁ра
s
ше
▁однако
том
▁может
нию
пи
ными
▁ф
▁ба
t
▁были
▁чтобы
9
i
ды
ши
o
▁ле
▁ни
ских
▁э
▁ее
▁кон
▁она
ром
▁ро
▁заявил
зо
7
ком
ша
▁если
лен
▁та
ь
6
a
3
▁более
ц
вы
▁д
ция
▁ве
лу
ха
вали
сто
ен
▁ста
▁3
тельно
▁или
бы
▁этого
ан
ев
▁хо
ник
бу
▁словам
▁ку
чно
▁ва
ника
гу
вых
ском
ы
▁си
▁лет
▁когда
▁тем
лы
сс
ер
су
нием
ются
лов
▁де
ря
ru
),
мен
про
▁са
▁ме
ца
▁ин
вал
вер
▁се
c
ще
сь
рова
▁м
зе
мер
▁пока
▁су
▁была
цию
▁бе
00
ву
▁млн
▁есть
▁п
при
ников
).
▁4
ща
▁1
пе
▁бу
тра
зы
▁ю
▁можно
ские
ей
фи
▁очень
▁фа
▁оста
▁зна
ят
телей
дом
▁даже
це
▁чем
▁ми
d
сов
▁без
▁бо
▁сейчас
▁дела
цы
ге
лю
l
▁5
▁один
▁т
ска
▁против
теля
пу
ете
спо
▁два
▁лю
ско
ному
▁200
вает
▁з
▁пла
▁будут
▁полу
ней
▁пи
▁ри
▁всего
тели
ская
льно
сть
▁этот
▁быть
▁стра
▁сказал
▁ранее
▁ру
▁где
сы
дов
▁президент
▁пе
▁7
▁компании
?
зу
хи
▁им
▁три
▁страны
ники
▁млрд
ци
▁украины
▁б
стов
▁больше
▁жи
▁рас
лан
ровать
льного
сты
▁га
сте
рен
u
▁ди
p
аль
y
r
чу
жен
чен
▁е
▁несколько
▁20
▁6
нил
▁рублей
▁воз
▁кроме
▁нет
▁между
▁уда
газ
▁це
▁мар
жения
▁свою
▁человек
▁ту
нова
▁много
лом
▁s
цев
рт
▁х
нен
гда
b
▁ха
▁созда
▁19
m
▁сло
▁которая
ству
▁2
стве
▁ло
▁пол
▁переда
▁президента
▁ки
▁авто
▁ч
▁обра
чения
бра
▁ар
тия
▁ш
ден
нее
▁пу
g
▁глава
▁них
▁этой
фа
▁г
вле
ери
ких
ским
▁суд
▁му
вого
ций
h
лей
▁ла
кон
стра
нения
ск
er
он
▁показа
▁ос
гра
▁ак
цен
тор
▁боль
▁обо
▁стал
дно
▁себя
вые
▁нас
▁c
▁пер
ское
ья
▁тогда
кова
▁решение
▁через
▁10
▁ему
льной
an
▁лишь
▁име
▁рф
▁могут
вым
▁отметил
▁место
▁b
▁своей
льных
▁8
▁является
ван
▁m
нима
▁именно
щи
▁год
▁всех
▁дело
▁ан
жда
льный
рован
▁работа
тив
▁эти
▁экономи
▁t
мой
▁власти
ходи
▁говори
▁которых
▁над
дь
▁стороны
▁кто
▁данным
ствен
▁государ
▁призна
ющих
▁россия
k
рой
мет
вший
стро
▁сто
кий
▁гра
ках
▁двух
▁перед
кого
▁пресс
▁около
▁говорит
зна
гла
фе
▁отмеча
жно
▁p
▁фи
▁ответ
▁просто
ками
▁него
жение
▁экс
шен
ски
▁день
▁само
ств
пре
n
▁обще
▁a
▁игра
▁случае
шение
ман
▁ци
▁стать
шей
ющие
кие
рует
▁счет
▁ду
▁заклю
сту
вод
▁9
▁области
сса
...
вая
v
▁момент
▁тыс
▁мин
▁числе
кт
▁откры
ших
▁основ
кс
▁тру
▁сказа
es
тно
лет
▁которой
ющий
en
f
ере
нем
w
три
▁там
кра
▁кар
пол
,5
▁че
▁считает
▁сам
тельства
▁занима
рон
стре
+
цией
фо
▁мне
▁граждан
▁совер
▁своих
▁мира
▁15
al
вом
сли
▁меня
▁слова
▁би
мя
рии
▁рассказал
▁отмети
скую
вания
него
вают
▁пояс
кин
жде
▁команды
▁евро
▁тех
сси
рь
!
▁состоя
▁ника
ъ
сла
нить
дова
▁второй
ждения
▁сообщил
тить
кла
ним
той
▁ком
мента
кта
▁журнали
там
ор
▁расс
▁совет
▁чи
вала
▁должны
▁ис
ровал
or
▁вопрос
▁пра
▁первый
кам
▁которого
ar
чных
▁фор
▁вра
стей
чной
▁другие
раз
ший
▁пода
▁хотя
ством
чение
пер
мости
тки
▁послед
▁пред
дей
▁право
▁свои
▁своем
тиче
води
ход
дер
скому
▁сми
▁-
▁мину
сом
▁часть
она
▁состави
▁тот
мов
▁суще
▁приня
▁владимир
вается
шего
▁дру
▁мнению
▁стало
нах
▁теперь
▁r
▁кри
лли
▁шта
рта
▁стран
▁поэтому
зова
▁голо
▁сегодня
it
▁объ
▁собствен
об
ё
нами
▁высо
рия
▁связи
щение
рий
нача
тий
льные
▁бра
кая
ваться
▁нару
▁$
▁среди
▁компания
▁безопасности
▁пар
▁кра
▁ча
%.
тора
них
on
чь
▁конце
▁колле
рей
логи
пла
x
▁российских
▁других
▁вопро
щих
▁g
▁гу
▁н
▁нача
щения
лько
▁нем
▁почти
вый
▁федера
казыва
ческих
▁представитель
тин
▁александр
чный
нять
▁российской
▁руководи
щ
▁людей
▁менее
▁своего
▁удалось
шел
▁региона
тие
щий
щего
▁сторо
▁прода
щен
▁действия
▁центра
нец
фор
вание
нам
цион
▁вместе
▁ну
▁12
▁нео
▁объяс
▁11
▁доро
нение
▁ти
вших
▁организа
▁подтвер
лия
пра
▁цен
йти
▁ж
ран
▁предо
▁вер
▁впрочем
▁испол
▁эта
▁сред
▁москвы
ева
▁российского
шения
▁успе
▁теле
▁политиче
▁ново
дели
▁должен
▁w
ствия
▁москве
▁ря
▁2018
тами
▁чу
ственно
▁составля
ин
ствие
▁серьез
ью
▁сразу
ске
▁ата
le
▁наз
скими
▁повы
▁ст
in
▁стали
▁ходе
▁разви
чет
ческого
▁ск
▁кор
▁чер
▁изда
▁вос
▁коми
▁подоб
▁одной
▁появи
гля
стри
▁свой
▁счита
▁f
▁поле
▁потому
▁путин
▁исклю
ческой
▁сергей
▁необходи
▁ша
▁выступа
▁вот
▁настоя
▁реали
▁сни
▁такой
▁подчеркнул
▁написа
ление
▁образом
ган
▁работы
сле
▁согласно
▁недо
вет
▁попа
ностью
▁распо
лин
▁ге
0-
%,
▁представи
дии
▁d
▁нужно
ющего
ссии
чные
20
зации
/
точ
▁бро
вя
чного
▁официаль
▁игро
тре
▁сообщает
ления
ственного
ях
▁стоит
ье
бер
▁помо
▁ше
чки
▁времени
▁отношении
▁жизни
▁прош
▁глав
ro
▁начале
▁результате
еди
▁пор
▁матча
▁пози
▁анали
▁итоге
мом
щей
▁очередь
▁каж
ети
▁доба
▁назад
▁себе
▁спи
▁интере
-1
▁сте
▁нынеш
▁зада
▁вз
ственной
▁одного
▁котором
ток
▁государства
тя
▁тысяч
▁взя
▁нам
▁напом
▁территории
ссе
▁пример
кре
▁полити
▁несмотря
▁частности
стан
ницы
▁хи
▁таким
▁агент
ходит
▁сов
▁затем
▁части
▁запре
▁города
бой
▁странице
бре
▁финансо
▁$1
▁исследова
пло
зов
▁мест
ким
вич
▁авиа
▁сер
▁ничего
лова
▁дома
▁возмож
▁тай
зя
▁оп
▁опера
▁лу
▁добавил
▁прекра
▁матч
▁направле
▁человека
▁эксперт
▁партии
▁сокра
рию
▁матче
шие
▁причи
тах
▁люди
▁говорится
▁защи
▁сборной
▁чего
▁проис
▁2011
▁находи
▁срав
▁ц
ровали
нь
at
пы
▁свое
▁известно
чить
нили
кан
▁тра
▁стала
▁опре
▁пов
▁ожида
▁гру
▁наде
бле
дить
▁кла
▁эту
рин
лья
▁четвер
▁закон
ствовать
тер
▁футбо
▁спо
▁отношения
щении
▁рез
▁р
▁уверен
▁сдела
сно
▁дня
▁ско
ктора
▁стране
▁проводи
▁поскольку
▁дума
▁роди
дой
▁угро
▁премьер
жу
сан
▁этих
▁вне
▁американ
▁информации
спе
▁сохра
▁видео
▁дан
нал
тера
▁25
▁h
▁заседа
цу
▁места
▁гла
▁европей
рах
▁ги
стоя
▁одно
▁две
ек
▁назна
йте
▁принима
от
▁вла
▁кандида
ница
тен
нес
щее
▁надо
▁18
▁кли
кто
рования
▁обы
▁тоже
▁вклю
▁хоро
вля
▁зде
кса
▁30
дела
▁прошлого
▁возможность
▁пыта
▁идет
▁прави
▁i
▁2012
▁трех
▁креди
▁руб
шли
вок
▁каса
▁13
рабо
▁выпол
▁которое
▁организации
▁команда
ут
▁социаль
▁суда
ter
▁даль
▁14
▁сотруд
бро
▁согла
▁начала
шим
тельной
▁мог
▁луч
▁стре
▁действи
цо
▁генера
▁коро
▁обла
еры
деле
▁анти
ющей
▁рамках
ставле
▁председа
▁лидер
▁тре
▁буду
▁дмитрий
▁получил
▁воро
▁круп
▁проек
▁российский
▁обяза
▁поли
▁способ
▁международ
▁участ
льным
▁получи
▁n
▁этим
нок
кции
▁16
▁меди
▁иде
стру
ствии
▁контро
▁след
вно
▁кино
▁уче
▁програм
▁главы
▁возможно
чей
▁разме
наль
лле
ником
▁ши
кти
▁последние
▁ска
▁участие
мон
▁свя
дар
▁встречи
нет
▁ситуации
обще
ень
▁группы
все
▁дви
▁уча
▁пря
▁поло
▁0
тии
чита
▁основа
тро
▁футболи
дель
ред
тон
▁противо
▁правительства
▁качестве
нин
▁извест
телем
▁одна
▁провер
ниче
вести
мина
▁собра
▁l
▁сопер
▁находится
чер
чил
ссо
нер
кси
▁реаль
гово
us
ющим
▁продолжа
цов
▁докумен
▁привле
вшие
▁выз
▁совета
вое
▁закры
▁ней
ез
нных
▁порошенко
▁встреча
каз
▁предполага
▁пять
кро
▁сы
щем
▁мяч
▁тому
▁восто
бор
▁национа
▁британ
сил
пуска
пле
▁ог
ходя
▁использова
▁2017
ственных
▁минут
▁вой
▁миро
▁заня
▁собы
вен
▁199
жды
▁the
▁действу
▁аб
▁город
▁европы
дя
▁вол
зыва
▁четыре
▁бло
▁значи
явле
▁нового
▁украин
▁тяже
▁зо
▁непо
▁такие
▁осо
▁мая
▁сет
тур
▁обеспе
чным
▁строи
▁соответ
▁установ
▁17
▁потом
▁первой
▁правда
▁слу
▁сооб
▁дет
▁нико
щие
▁всем
▁соб
▁другой
▁чемпионата
ил
▁плани
▁проду
▁жела
служ
▁решения
чает
телям
дра
▁деньги
шая
шу
▁удо
нуть
летний
вшего
ять
жной
▁матери
ступа
▁други
▁юри
▁сделать
мене
▁первом
ствует
ic
▁соответству
▁друго
▁министер
еха
▁ей
дил
▁таких
из
чать
▁сообщили
▁террито
▁имеет
ктор
▁украине
гов
▁законода
кую
ян
▁мэ
▁которую
▁ситуация
лой
ур
▁должно
ждение
▁внимание
▁директор
▁комитета
–
▁сентября
▁заявила
дет
▁многие
▁сле
▁источник
▁сти
°
▁бан
▁месте
никами
рос
▁2010
рами
▁штраф
▁лег
▁смо
▁став
веде
▁бизнес
,2
льном
▁долго
▁весь
▁реа
▁выс
нно
▁течение
▁эксперты
▁победи
▁шко
▁первого
▁русс
кры
▁сро
▁ним
▁обсу
нев
▁диа
▁новый
▁ули
▁продолжи
дут
▁бюджет
▁завер
▁возвра
▁россий
▁проблемы
▁права
▁российские
▁осу
льная
нич
▁реши
;
▁марта
жден
▁готов
воз
as
▁мвд
▁января
▁поряд
стой
▁должна
чат
▁кру
▁одним
z
▁специаль
▁инвести
слу
▁министр
▁тран
кое
▁дей
▁пост
жных
след
лев
:1
нные
▁рост
сен
▁прошлом
▁оцен
▁спа
▁интервью
нд
▁сами
▁отправи
вар
,3
рю
▁виде
▁представля
▁прибы
гре
▁россиян
▁китай
▁догово
▁пло
бов
вин
ску
▁достаточно
is
слав
сова
▁этому
писа
▁заявле
-2
▁кана
торы
▁кур
сон
▁прод
▁управления
▁дра
шем
▁подо
▁заме
▁количество
▁од
пор
▁аре
▁выда
рения
фици
▁оконча
того
делен
▁вто
руют
▁встре
▁декабря
▁речь
емых
▁спе
▁системы
▁предло
▁детей
▁работу
▁поз
▁июля
▁группа
▁воен
▁образова
тных
вшая
ческие
▁представители
мена
лем
▁оче
▁зако
▁случа
сили
▁андрей
▁зам
▁един
пусти
▁годы
▁компле
дения
▁отве
шении
,7
ченко
▁публи
▁телека
▁семь
▁новых
▁бое
ственный
льное
▁актив
▁итогам
каза
▁трамп
▁опас
рази
▁игры
▁результа
▁утвер
▁пользова
▁фе
▁причем
хода
▁полови
▁августа
▁россию
▁федерации
хе
ведения
▁новости
ступи
жении
ую
зан
▁внеш
сков
el
▁необходимо
▁средств
▁влия
▁21
сед
▁2014
тельных
▁тор
деля
▁ради
коми
мени
стана
▁гон
рак
йдет
▁проект
▁мир
▁скоро
▁полиции
▁стро
▁практически
мость
▁мер
,4
▁бар
▁главный
▁специали
▁перио
оне
▁сум
▁болельщи
▁победу
ктов
▁сама
▁стан
▁обе
▁клуба
ing
▁пун
▁отказа
,6
шки
▁аль
▁подготов
чка
тый
▁газ
▁ген
▁деву
▁рай
▁пострада
▁дней
▁нау
▁своим
▁окру
лла
▁арти
читы
et
▁правитель
▁отсут
дол
держи
j
▁оба
▁похо
om
▁озна
▁оборо
▁хорошо
▁подпи
▁зем
▁сообща
▁дер
▁разре
ложи
бом
телями
▁ху
▁тер
▁замести
▁внутрен
▁станет
▁пара
▁бой
▁убе
рд
▁сирии
▁апреля
▁поль
▁разо
▁зри
хов
▁июня
▁ведом
▁дости
▁нее
▁посе
тил
▁ракет
▁полностью
рам
няет
их
▁22
▁новые
▁алексей
▁постоя
онов
сить
▁посмотреть
▁ведомства
мышлен
▁вре
▁кажды
▁контра
▁могли
▁ес
прово
▁террори
▁сил
▁2019
▁приве
▁спустя
нению
стями
▁филь
▁гре
▁накануне
ческий
▁v
щая
▁уровне
тина
▁дел
▁100
▁связа
тых
дин
зин
▁писа
▁бес
▁развития
дит
▁2013
▁рабо
дили
стави
ed
кер
▁заявили
▁энер
▁дово
жений
▁моло
▁ссы
▁зелен
мат
▁отра
▁бывший
▁поддержи
шению
▁зда
▁истории
никам
▁шай
▁якобы
дж
матиче
▁отно
▁ию
▁требо
▁край
тан
▁реги
▁жа
няя
▁вице
▁относи
▁народ
▁указа
▁рынке
▁хозя
ктив
▁столи
▁опубликова
▁попро
смо
лон
реа
▁дол
вшись
ваются
выми
▁выпла
▁состав
▁ор
▁капита
сер
стер
форми
ol
▁обрати
▁никто
▁информацию
читель
нала
▁пет
▁гражда
▁правительство
стом
▁коммента
▁считают
вери
il
▁бер
меня
▁поми
▁сотрудники
нут
▁23
▁началь
▁органи
▁октября
прави
▁facebook
сем
▁сыгра
тельного
шет
▁которым
вую
▁производи
▁близ
жет
▁мероприя
▁дополнитель
▁скорее
нику
▁тренер
▁24
ху
▁самых
▁преимуще
▁сме
▁запа
▁обвиня
▁заявление
▁пользу
▁пожа
ат
ведение
▁популяр
ставить
▁запад
▁россией
чески
▁данные
тел
▁ноября
зии
явля
▁собой
▁кры
гру
▁лиги
нина
ницу
бли
шь
▁средства
лог
▁сем
тали
ставля
▁реша
▁геро
тельный
▁кварти
▁вероят
▁принадле
нс
нила
▁заявля
▁конкурен
▁прав
▁принци
▁заби
▁2016
▁карь
▁гор
re
▁впервые
зд
▁мужчи
▁поки
▁неу
▁технологи
мар
▁получить
▁маши
▁фун
▁красно
руется
ню
▁выра
▁ситуацию
▁норма
▁пятницу
▁уров
▁среду
▁фильм
▁институ
▁стар
▁поддерж
▁позволя
▁разгово
▁присут
▁тур
чку
▁наказа
▁меньше
▁связан
жо
▁выход
дина
▁период
▁мало
ta
▁компаний
▁называ
лых
▁позже
▁рынка
▁дальней
▁сай
▁обви
ad
зывает
хва
▁такое
▁увеличи
▁уни
стам
▁составе
▁еди
▁дж
▁программы
мс
лого
▁задержа
лами
▁сня
клю
▁судеб
▁собира
▁прове
▁веду
яви
▁объек
▁втором
▁выше
чая
боль
▁приобре
▁понедельник
дия
«
рина
▁депутат
▁срок
▁обороны
▁распростра
мин
▁управле
вета
били
лега
▁50
мент
▁свет
чном
кет
▁жизнь
▁лучше
дже
▁бли
▁совмест
▁поме
▁мощ
▁особенно
▁процесс
▁произошло
▁доказа
▁акций
таки
вел
ниц
▁четверг
вшей
▁гос
▁предлага
▁первую
▁зарабо
▁конца
▁напа
▁оказа
▁вариан
▁правоохранитель
▁нато
▁отдель
шую
▁депута
▁произ
▁in
▁постав
▁массо
циона
▁месяцев
▁возможности
▁благо
▁крым
▁объеди
кими
рить
▁стоимость
гер
▁некоторые
▁отли
▁согласи
вид
тельные
▁вновь
▁клуб
▁чув
▁работать
кте
▁приме
▁опы
▁мире
мых
▁проблем
▁выяс
▁сол
▁гол
▁статисти
шла
▁роста
ственные
торов
нул
нный
▁режи
:2
▁днем
▁тради
сона
тили
▁судь
▁игру
ходов
ходят
жать
▁большо
▁говорят
ум
▁оказался
▁поддержа
шений
▁ль
▁такого
сам
▁спро
▁бере
▁пришлось
▁предприя
ала
▁сла
▁опро
пред
нной
▁владимира
▁уви
ходы
ябре
ун
▁важ
▁сотрудников
▁интерес
▁превы
▁получили
▁следу
▁узна
вит
▁e
ниях
вест
туры
нали
дать
▁пассажи
▁сезоне
рил
▁вторник
▁пяти
гом
▁самого
нера
▁лидера
▁трампа
вшим
▁делу
▁л
▁роль
шо
кты
емы
▁победы
▁гри
▁нель
льную
▁сети
зма
▁избира
стви
тет
▁отличи
▁вс
ur
▁проекта
▁гости
▁случи
▁кни
▁вну
▁ката
реди
▁север
ционной
▁мид
▁глу
▁меры
▁спорта
ссия
дел
кар
шенно
▁выборов
▁целом
▁современ
▁26
▁путина
фон
▁адвокат
▁благодаря
▁разли
▁парт
▁верну
▁февраля
▁нако
▁слишком
▁милли
▁большой
▁ры
▁преду
▁германии
нит
жный
▁кора
▁выну
▁рассматри
▁последний
гии
▁работ
▁парламента
▁новой
возмо
▁ал
50
▁политики
▁деле
пов
цам
▁содержа
▁почему
▁республики
▁населения
дума
▁удар
▁результаты
▁вопросы
▁роли
▁команду
▁самым
▁самом
дение
▁клу
▁помощи
▁лиц
▁28
служи
▁фон
доро
циаль
▁шан
▁назвал
▁уго
▁сторон
личи
▁газа
▁москва
пен
▁проблема
▁потеря
▁структу
тельство
▁характ
▁пала
▁обвинения
тики
тию
▁ус
▁пись
ждать
▁язы
род
▁наблюда
соб
ступле
▁заверши
эн
▁москов
▁защит
▁давно
▁данный
am
▁всей
▁деся
порт
▁оон
▁акции
▁александра
лый
жного
▁проце
рование
▁ворота
▁люби
▁зе
▁независи
нове
▁сотрудниче
▁банков
▁проте
▁начали
im
▁национальной
▁вскоре
▁теку
пера
▁дире
▁сери
▁губерна
ющая
зом
▁каче
ар
▁води
строе
ровки
деть
▁вв
▁позиции
▁вза
▁хва
▁деятельности
▁предыду
▁o
▁май
▁иностранных
▁конкур
сро
▁начина
▁многи
▁администрации
тал
▁пои
▁представле
▁уголовное
цами
▁трав
▁департа
▁недели
▁экономики
▁фильма
▁вели
▁площад
▁самой
ходить
▁поводу
цин
▁информа
▁смер
▁киев
▁уровень
▁движения
▁остается
▁шо
▁долла
▁войны
лот
лага
▁часто
▁возра
▁женщи
им
▁запи
шать
▁мет
▁жерт
▁следова
▁демокра
▁большинство
тать
▁гро
▁кад
воль
под
шка
бира
пар
мети
▁фран
▁пя
▁позволи
жные
ген
шее
▁род
▁сезона
тной
▁условия
▁начал
▁версии
▁крем
нице
▁официальный
▁газо
▁материалы
▁пос
▁банка
лии
строй
▁аф
▁пенси
▁экспер
▁служ
▁автомобилей
un
помина
▁скры
▁уси
▁непри
пере
▁км
▁налого
▁услу
графи
▁амери
▁выигра
▁эк
▁27
▁состоянии
▁поста
пози
▁середине
▁шоу
стка
шением
сур
▁соста
бин
▁сделал
▁приз
шин
▁документа
▁француз
▁карти
▁самоле
▁цены
▁очков
▁претен
▁силы
они
▁санкции
правля
▁предпо
▁треть
▁снова
▁вооружен
▁одном
чную
менить
россий
вели
нг
нови
▁демон
▁запла
▁офи
сит
▁мак
▁ограниче
▁предпринима
▁супру
▁успеш
▁освобо
пет
▁вышел
▁смогли
▁иг
стран
▁играть
▁торго
▁искус
чная
числе
▁форма
пин
нении
▁службы
▁челове
▁ограни
▁провести
▁четырех
▁сена
▁районе
▁уби
эй
▁план
▁погиб
жением
▁тан
▁сможет
▁оператив
▁съ
щим
▁использу
▁кро
▁сообще
ровала
▁покупа
▁участников
чем
▁рассмотре
кло
мые
▁смог
жей
▁зве
▁ядер
▁предупре
зывать
▁впере
клады
▁выборы
▁крити
тона
▁городе
▁являются
▁сф
▁уголов
▁выборах
▁сих
▁команд
нюю
ционных
вра
▁слож
вли
тива
тере
ква
▁вет
▁стратеги
▁пригла
▁уве
▁аэро
обра
▁руководство
щу
▁здоров
лина
▁орга
рва
рованы
▁измени
ционного
▁второго
▁рассказала
▁силу
▁фотографи
тай
▁40
▁максима
това
▁ряд
▁прогно
▁устрой
▁комменти
▁публика
▁бал
▁отда
▁уи
▁31
казал
▁доступ
▁мм
▁некоторы
▁цска
▁раньше
▁зи
▁побе
▁ира
▁закона
▁смерти
▁снизи
▁военных
▁эпи
станов
▁уди
▁куль
os
дви
▁рассчиты
▁каза
▁катего
▁руковод
лад
▁упа
▁незакон
▁техниче
▁часов
▁установи
▁неизвест
▁заявления
док
тный
▁шесть
▁представителей
▁рын
[
▁тро
▁условиях
▁част
▁рынок
▁свер
▁сканда
▁$2
-201
▁немец
прав
▁иностран
▁дво
чении
поли
▁старто
чное
▁активно
▁пути
▁эксп
над
▁нескольких
▁стои
▁первым
]
ступление
▁изменения
▁равно
▁сим
▁кварта
▁задержан
бло
президен
▁пси
▁сцена
чено
лют
▁франции
▁рей
▁деятель
▁переговоры
▁первые
▁помощью
▁выступи
ложен
—
▁счетом
▁подроб
▁вместо
▁обя
▁сирий
гах
▁центре
▁соперника
▁золо
▁транспорт
▁интернет
лам
ему
ясь
▁чинов
▁потре
▁чемпион
ствовал
▁зависи
▁президентом
▁постанов
▁михаил
▁друг
▁празд
▁преступ
верси
▁свободы
▁команде
▁хозяева
▁преступления
▁чемпионате
▁дека
шает
▁2015
▁сообщила
дает
кту
зм
▁санкт
▁сту
▁ошиб
▁прожи
▁шу
▁apple
▁действий
▁оружия
тые
ема
▁раза
▁кос
ятся
▁финанси
▁украина
▁мор
▁неделе
тные
▁рекла
смотре
▁случай
▁великобритании
боро
▁адвока
кли
▁органов
▁жест
держа
вии
▁хочет
ющее
▁европе
жал
▁ниже
▁29
▁мини
▁американских
▁месяца
▁серии
▁прокуро
лиги
восто
рыв
станови
▁профессиона
▁бума
▁которому
▁тол
стью
oo
▁аналоги
▁давление
▁мя
▁ман
▁элект
чены
▁отече
▁силь
ствова
вшийся
▁прио
▁подчеркну
нного
интер
▁властей
сей
▁оцени
▁фоне
▁низ
▁доста
▁союз
тья
▁недавно
▁поддержку
▁сергея
▁помощь
ставил
:3
▁обеща
▁девя
▁жителей
▁секре
зь
▁атмо
▁выво
ion
ut
▁всю
сад
▁находятся
▁главного
▁денег
▁турнира
вить
▁данных
▁наиболее
▁сере
зор
▁источ
▁число
▁потен
▁турнир
▁свидетель
▁оч
▁количе
руп
▁тури
еру
▁google
▁провел
▁кам
ot
бля
▁голосо
шед
▁матчей
тельств
▁констан
ia
леко
▁ne
▁российская
▁нач
▁встрече
ктически
▁судья
▁подписа
▁последнее
▁придется
▁прокомменти
ланд
▁ива
реги
ченных
▁подозрева
▁эфи
▁вряд
▁кре
дру
ствуют
чили
▁отме
▁полицей
▁хра
▁следствия
фика
▁система
-3
вил
дор
▁горо
емого
▁зарпла
▁доби
бан
▁телеви
▁экра
▁гово
▁информация
пас
пита
клад
лета
стами
год
йор
фина
▁фонда
гами
▁бори
лка
▁ке
▁вокруг
строи
▁тыся
▁американского
зация
▁госдумы
нений
▁джон
праведли
пуск
▁причиной
▁одну
▁управля
▁республи
▁список
боле
вари
матри
▁истори
нитель
▁объяви
мана
летнего
▁положение
▁самый
дах
▁активи
▁игорь
▁трени
▁певи
сет
став
вов
▁работе
эль
порта
пом
тации
цем
ванием
▁ключе
▁расши
бора
гой
ac
кина
ям
▁последних
▁k
йн
▁намере
кну
нией
▁st
▁готовы
▁бор
▁попыт
вича
▁имени
▁подряд
▁противостоя
мини
▁пари
▁долж
▁дтп
лые
▁следует
▁обстоя
▁предъ
▁оружи
▁оказались
▁игре
емый
ственным
▁воору
▁обществен
ерт
▁дже
▁положи
вор
▁конститу
▁аппара
▁санкций
▁полага
▁чемпионов
▁серви
деления
▁медведев
▁театра
секретарь
▁покуп
▁воскресенье
мери
▁изу
тво
▁актер
▁пропа
▁пригово
▁решил
▁зато
▁бом
▁станови
▁брази
россия
▁конфликта
▁субботу
▁возду
сения
▁рейтин
▁бен
▁ночь
▁нуж
▁мат
▁никола
тр
▁бывшего
телю
▁месяц
▁останови
большо
▁вен
▁оце
▁разрабо
▁валют
▁района
▁северо
▁высоко
▁требования
▁сильно
▁ву
▁клиен
▁алкого
▁американский
тета
▁объявле
▁мол
циях
▁мень
▁нефти
ковой
жены
▁итальян
рую
▁десяти
лях
▁проби
зда
▁эффектив
▁принять
▁выска
дий
▁водитель
▁проведения
▁мили
ws
▁результат
▁потерпе
анд
▁очеред
▁украинского
▁отношений
▁напря
ционный
▁инф
▁улуч
нди
ческим
рыва
зер
▁предположи
▁воздуш
yo
▁транспо
'
▁насе
▁меж
динамо
сло
езд
ческая
▁вес
вшихся
▁регу
▁ото
▁спортив
тем
щать
▁агре
тного
▁ты
▁разработ
▁кубка
емые
▁бюджета
▁концер
▁винов
тей
▁нью
▁своими
политиче
ехал
▁верси
зей
▁большин
ch
тельным
▁запро
▁ночью
▁внима
▁ребенка
рок
шить
тери
част
▁протяжении
▁уголовного
вили
▁обсужда
▁стади
▁суде
тельное
▁родствен
син
ступ
▁олимпий
▁выразил
тым
чре
▁апре
▁прокура
▁рос
стры
гети
▁молоды
▁процеду
▁крыма
▁оказалось
▁бри
▁гаран
чика
▁следующий
▁игроков
▁членов
▁одо
рко
ющую
гар
▁сентя
▁ок
▁регионе
банка
▁армии
▁негатив
▁корруп
стров
▁целью
▁неда
id
ir
▁министра
бя
гли
▁достиг
▁произошел
▁пора
▁автомобиля
▁боро
голо
тех
▁подня
жает
▁использовать
сфер
зен
▁украинских
муще
бла
▁автор
рая
▁ори
▁япон
▁неко
▁нарко
рез
▁коман
▁дву
▁получила
▁заво
циями
няется
▁первое
▁знамени
▁размере
▁комму
▁дени
▁времен
▁полномочи
▁сове
▁дипло
▁попыта
▁партне
▁неза
тром
сах
▁принял
▁самы
бран
▁исто
▁реко
▁дом
нести
▁операции
▁неделю
▁евросою
▁принес
▁американские
▁акционе
▁неожида
бри
▁янва
▁евгений
рс
▁смогут
▁проведе
лий
▁найти
▁парламент
шло
ряд
▁принято
▁автомоби
▁нарушения
пр
▁потреби
мей
▁жало
▁сезон
фф
▁систе
▁моби
▁потребо
яс
▁суб
▁исполнитель
ставили
▁поклон
▁сан
▁официально
▁выру
▁юрий
▁ока
▁российским
▁коло
▁супер
▁окт
▁ино
ить
▁очередной
▁мировой
▁спортсме
▁an
▁расследование
▁вечером
▁история
прежнему
▁фина
▁неуда
▁$3
стки
▁допусти
джа
тар
▁белоруссии
суль
▁выдви
▁власть
▁главным
▁военные
лове
▁моря
▁воспо
▁американской
ag
▁вось
форма
года
▁чле
лены
бере
▁кали
▁административ
кцию
▁сумму
чай
▁соглашения
▁выйти
▁машины
▁расследования
▁погибли
▁закончи
▁добы
мый
▁адрес
▁услови
▁направи
▁мужчина
лье
▁й
▁владель
ременно
▁москву
▁обнару
▁регуляр
мор
▁подчер
▁усили
▁сообщения
тс
куп
▁превра
мого
▁молоде
лож
рованных
▁всему
▁фо
▁предложи
▁гло
▁ат
▁международного
▁екатери
стя
▁60
▁пору
роваться
▁сом
чают
▁ожидается
▁союза
▁голки
▁резо
▁минобороны
пить
▁источники
▁уничто
декс
▁переговоров
▁боеви
▁поко
▁электро
▁начало
▁автомобиль
▁домаш
гло
▁продажи
▁происше
джи
▁московской
ческую
▁зая
▁отмечают
▁арби
▁едва
тарь
▁крас
▁ара
▁конфликт
▁посети
▁свобод
▁выступления
▁иран
▁оде
чик
▁спортсмен
▁мед
▁банк
0.
чиков
влетво
▁лондон
▁конгре
▁боле
5-
лена
▁защиты
▁предложение
вшегося
▁пользователей
▁чет
ходе
▁номе
▁решили
▁контракт
▁участия
▁груп
▁ито
▁дэ
▁актри
▁возбу
▁произошед
N
▁иска
▁экстре
тру
▁требу
▁кан
▁увели
ay
ями
▁режиссер
▁соц
▁непро
▁вступи
▁законопроект
▁заяви
▁борьбе
ционные
рабаты
▁бизнеса
▁маль
▁фин
▁следователи
▁эле
нули
▁комп
up
▁сбо
▁февра
лл
▁дал
лер
▁украинский
▁пропусти
▁музыкан
▁производ
▁сдел
▁джо
▁ликви
▁фото
бай
рев
▁жен
▁ответственность
▁рубля
▁живо
таря
▁встрети
▁центр
▁жур
▁роман
▁бю
▁фсб
▁перево
ляции
▁объявил
▁авгу
▁признал
▁посо
▁ответственности
премь
▁утверждает
ссы
езда
▁джей
▁сбор
▁отказался
▁ближайшее
▁суме
грам
▁создать
▁торгов
▁белорусс
▁тр
зит
▁провели
вед
▁пройдет
▁производства
▁траге
▁страну
▁онлайн
▁желез
▁ев
мень
▁двумя
нос
ждает
▁партия
нется
▁сочи
▁нефть
▁сборная
▁гар
▁комитет
стати
▁ир
ствием
▁раун
▁испан
ксе
▁третий
▁предложил
▁выро
тков
▁инфраструкту
ющими
▁ассоциа
лении
пара
▁бол
▁акти
тое
▁али
▁режима
нр
▁следствие
▁законопро
▁продолжает
▁инте
▁оппози
правле
шил
▁вале
▁набра
ана
▁возглавля
▁предстоя
▁минимум
понен
потре
вшиеся
q
▁пробле
▁охра
дам
▁студен
▁лидеров
скор
▁женщина
▁сче
▁рабочи
▁топли
▁прось
▁ава
▁предвари
▁дене
▁находя
бур
▁пово
▁восстанов
▁дево
стям
жению
▁тренера
▁цена
нике
▁пят
петербур
бок
▁мю
▁явля
министра
▁отрица
▁деб
тура
▁зай
▁мага
▁най
нилось
▁московского
▁участники
▁украинской
▁несо
туре
he
▁семей
▁реда
▁ауди
дире
▁государство
цио
▁самолет
гры
▁взры
▁море
▁ам
▁строительство
▁зво
▁произо
тором
▁аварии
▁соревнова
▁причаст
▁военного
▁органы
министр
▁фестива
▁меда
тус
▁группи
▁ведет
вд
▁сда
менте
▁попы
волю
▁кер
▁машин
▁рассказали
рем
▁военной
▁инцидент
▁иск
▁диплома
▁ущер
▁сделки
▁подвер
▁факту
▁гран
▁ад
новой
соеди
▁израиль
▁десять
▁наи
летняя
▁защитник
▁автомобили
екта
▁николай
тит
▁спецслуж
▁облада
несен
▁плей
офф
▁фана
город
купа
▁хотят
ыгра
ковал
▁украинские
▁россияне
▁награ
▁оправ
▁тя
▁годов
сия
▁сви
#
регу
гани
▁напада
сток
ждены
▁гибдд
▁турции
▁главе
гна
▁определи
ционе
дами
▁мария
▁тари
▁миха
▁первая
▁плат
▁фер
▁дис
▁ано
▁выпусти
▁соглашение
▁заинтере
▁фигури
▁венесуэ
кри
▁инициати
▁испыта
▁прило
ферен
▁спец
ub
тка
▁митин
▁вышли
▁документ
▁свидете
пущен
▁олег
▁виктор
довать
▁лав
▁культуры
чными
▁верхов
▁вести
▁безопас
▁политической
▁музыка
▁свобо
▁подмосков
▁администра
вере
▁for
▁температура
▁автобу
дзе
▁посоль
вому
гам
▁пенсион
▁сво
▁александ
▁собирается
▁перспекти
▁диск
▁меся
стин
роснеф
▁гер
▁яро
▁выбо
али
▁отказыва
▁площади
▁поч
▁шести
▁мигра
строва
▁подозре
газпро
тая
▁прошед
зывают
ющихся
ницей
тает
▁жители
▁поедин
▁колонии
стях
дят
ap
▁беспо
ссию
▁группе
▁будущем
бр
▁тен
▁худож
игры
энер
▁попал
▁опровер
лок
▁систему
тни
▁разго
рг
▁ван
▁гей
▁цб
▁оказалась
▁самми
▁джа
нью
▁вырази
▁сце
▁табли
▁рефор
▁нефте
▁выхода
▁фили
▁бога
дан
▁столкнове
▁фору
▁победа
▁пого
▁полиция
дера
▁проигра
▁вмеша
сят
▁едино
мену
▁захва
▁повлия
▁швейца
дении
▁развед
▁военнослужа
льта
▁договора
▁муж
▁разбира
коло
▁посла
▁намерен
▁диви
▁обеспечи
туру
▁крупней
▁побед
▁политика
▁эр
▁але
зовать
оз
щиков
▁контроль
▁кара
▁рубе
▁злоу
▁шве
▁армей
зацию
▁чиновников
▁мчс
▁кита
▁участием
▁экспертов
▁прибли
мати
▁турнире
▁раскры
рит
▁интер
▁слуша
▁англий
▁чемпиона
▁преми
▁матчах
▁пен
веро
▁пото
евро
▁состоится
▁договори
▁фрон
фы
▁петр
▁четверть
▁доме
лод
рат
▁взрыв
▁допро
кому
или
ис
▁ракеты
▁провока
кор
▁женщин
лах
▁восемь
ал
▁недвижи
▁дороги
▁главных
▁отстав
▁военно
▁ближай
▁заха
▁турец
▁руководством
▁мари
▁прошел
▁поезд
▁главной
▁столице
сф
ждении
мии
стет
▁предстоит
▁второе
▁кампании
▁лиши
▁укре
ера
▁двое
▁чемпионат
▁мно
тую
ченные
▁курс
▁экипа
▁надеж
▁санк
фин
▁прохо
кат
нопо
жется
▁готови
▁тимо
лил
da
▁остался
▁выступил
▁брен
▁планирует
▁сен
▁давле
▁коре
▁арген
▁украину
▁помощ
лана
▁норве
▁международной
▁компенса
▁социальной
газпром
▁справи
▁нефтя
няют
личе
▁дмитрия
▁продол
▁гром
▁кризиса
▁европейских
вшую
ремен
пута
▁передачи
»:
▁лишения
▁самолета
▁подс
▁еги
▁шансы
▁борьбы
▁минима
▁спаса
▁прогнози
▁убийства
▁пожар
гро
пания
стить
▁хоккеи
▁третьем
▁уво
▁китая
▁нор
краи
▁национали
барди
▁настаи
веден
▁путе
▁розы
▁расследова
тивов
▁спор
▁директоров
▁производство
▁отста
▁травмы
▁альян
▁новая
дли
▁компа
▁эко
▁трене
▁павел
нор
▁регионов
▁добиться
▁андрея
банк
▁должности
▁временем
▁произошла
▁церемо
▁российском
▁финан
▁маг
эм
▁сде
▁испании
сою
▁завое
▁чаще
▁казах
▁ниж
▁члены
▁позволит
▁италии
▁японии
▁метро
▁рекорд
▁сообщается
нены
▁испы
▁полуо
▁грузии
▁материа
▁ники
▁тюрь
▁специалисты
циа
▁республикан
▁анато
€
джер
▁инициатив
▁донбассе
▁опубли
▁инвесторов
▁следующем
▁правила
▁робер
▁пришли
вшейся
летней
мова
кель
▁наси
▁вернуться
номо
▁звез
цова
▁игр
шенко
бина
▁катастро
нита
чего
▁бир
▁моро
▁президенту
▁сне
стической
▁сист
спартак
▁осужден
▁моск
тории
чук
север
вше
▁топ
▁рады
▁местных
рес
▁группо
▁вашингтон
▁учеб
▁поражения
▁дож
менно
еренции
▁максим
▁визи
▁возбуждено
ура
▁бело
▁новым
▁финала
▁семи
▁масштаб
▁местные
▁миллиар
▁признался
▁устрои
▁забро
▁дни
▁забил
▁призвал
▁погибших
▁форвард
▁скрипа
▁программу
▁пообещал
чери
▁артист
▁герма
▁изби
▁запрет
ллер
▁подсуди
труд
▁лиге
▁шах
▁подго
град
нинград
▁куб
ктиче
▁фонд
▁ip
вшем
▁сообщи
вец
▁сумел
▁поражение
▁инцидента
▁банки
тельстве
▁медведева
ай
▁авст
▁третьей
нси
гор
кос
▁очка
▁ближайшие
▁наме
рита
льского
▁баскетбо
хан
зий
▁останется
нде
▁уступи
дила
▁чере
▁спу
неф
▁подели
▁сыграл
▁ухуд
▁оппозиции
▁радика
▁зарубе
▁грузо
▁депутаты
▁штра
▁тю
▁смогла
компании
▁силови
▁новую
▁подро
▁мака
▁командой
▁шаг
▁португа
▁россиянин
▁убий
нк
▁питер
знен
▁сре
▁ежегод
парта
возгла
▁профе
▁моз
▁влади
▁верто
час
▁чиновники
▁вышла
▁донец
▁столицы
кономи
▁алексея
рили
▁белору
▁церкви
лови
ксу
русс
▁истреби
бен
▁утверждают
▁нара
▁возоб
▁музы
▁новое
▁елена
фу
рма
▁возгла
▁матчи
▁аген
▁преследова
▁лидером
вами
▁лучшим
▁мен
▁приговор
▁леони
▁особ
сок
▁пытается
▁продаж
▁посвящен
▁дональд
▁макси
▁предвыбор
▁первен
▁ом
▁обна
вшему
▁кирил
▁госпитали
эк
▁тура
несли
▁правозащит
▁am
локомо
▁нашли
▁вернуть
▁ура
▁австра
▁известный
▁задержали
ката
▁вину
▁киева
▁стол
▁коали
тиков
▁одержа
стон
спартака
▁умер
порту
бар
бль
▁лукашенко
валь
▁безо
челси
▁музе
кторов
▁инициа
▁обнаружи
▁недоволь
▁которы
▁майк
гового
▁обнаружили
▁перегово
▁белого
авто
▁вяче
▁войска
вку
ks
▁наблю
▁патриар
▁показал
▁выиграл
▁евгения
▁вар
вши
▁еже
мпи
▁кризис
▁борьбу
▁полицейские
▁премьера
▁проходит
▁режиссера
нтов
&
▁финал
▁донба
бург
▁конфли
▁прошла
пей
▁госс
▁цер
▁конференции
▁бокс
▁опере
▁сей
▁центро
▁жиз
▁кндр
▁михаила
▁поправки
▁сериала
▁оши
▁лебе
ектив
▁третьего
▁констати
▁убы
▁похи
▁олимпиа
▁туре
▁столкну
▁ква
▁круг
▁счету
▁уволь
▁поро
рева
пря
▁ана
▁iphone
нему
▁этапе
▁выстав
▁пожи
▁ау
▁андре
гно
ваку
▁подписал
▁трое
▁днр
▁новом
▁ситуа
щик
▁сби
▁путиным
▁канад
▁отказаться
▁сизо
▁скандал
▁нападающий
▁киеве
▁избежать
▁убийство
▁ольга
▁темпера
▁хоккей
▁протеста
май
▁обвинение
▁нормы
▁вашингто
▁рейтинг
▁сеть
▁квалифика
▁опа
▁неиз
$
▁смартф
▁петра
▁кузне
▁аресто
▁мэра
гур
▁потер
дорож
▁прокуратура
▁втб
▁аналитики
▁возрасте
стане
▁альтерна
▁борь
сиби
▁англии
▁коме
▁отравле
▁госде
▁всемир
йдут
▁увеличить
▁украи
▁брон
зре
▁леген
▁президенты
▁требует
▁интернете
тече
ступления
▁серге
▁тенниси
▁мекси
▁израиля
▁называют
▁сексуаль
▁отставку
точно
▁наставник
▁сборную
▁компанию
▁готова
▁деше
атлан
▁получит
▁петербур
▁саакашвили
▁мяча
товал
▁этапа
дри
▁начался
▁корпора
▁фигуран
охра
▁пы
▁бель
ак
▁швед
▁лондоне
▁трам
▁кхл
▁подопечные
▁ждет
▁ввести
▁правоохра
оном
▁викто
туа
главы
▁школь
@
▁нхл
▁уверены
тони
ладель
▁дмитри
▁причины
▁худо
лег
▁соо
▁инциден
▁результатив
▁сбер
▁поку
▁скончался
лью
▁долю
▁финале
енно
▁гото
▁претенден
▁отстра
▁телеведу
▁товари
▁кие
▁капитан
▁премии
▁участи
▁настав
▁площа
▁ян
мур
▁ходу
барсело
▁анаста
блю
луч
бря
▁проигры
держ
ющем
▁изме
▁шпи
▁продолжают
▁предлагает
▁мосгор
▁верховной
▁нава
▁подопе
▁владимиром
▁третье
▁исполь
лез
▁перспе
виа
▁илья
развития
ав
хен
▁инвесто
▁тенни
цей
▁проверку
▁чемпи
сб
мога
▁дея
▁седь
▁анд
▁лидеры
игра
▁этап
▁пройдут
▁выходные
▁госду
▁гибели
▁президентских
▁опаса
слава
▁международный
руши
гоме
▁виталий
▁позво
ющ
▁беспоряд
жало
▁соперник
▁весе
▁ранения
▁дональда
▁прин
▁намерены
петербурге
тят
▁сомне
бл
▁владими
▁допол
▁убийстве
▁мино
▁ученые
▁вашинг
народ
▁казан
▁корпорации
▁ужесто
▁американская
▁патри
▁рейтинге
▁генпрокура
кру
▁даге
зенита
▁крупнейших
швили
▁зло
▁пострадали
▁крае
▁футболу
льи
▁следующей
▁нака
хии
▁правам
▁холдин
▁пья
▁грозит
▁рам
▁следственный
мест
ливе
▁петербург
▁ита
▁погода
▁назвали
▁алексе
ндо
▁взят
рее
ждают
▁россиянка
▁годам
фей
▁медведе
наси
смот
▁турни
▁парла
▁мошенниче
▁сра
следова
шта
▁чеч
баты
▁серию
▁биатло
ьез
▁набрал
▁попу
▁москви
▁полузащитник
▁виктора
рят
▁microsoft
пора
▁сити
▁поединке
ung
▁францу
▁московский
▁гиб
▁соревнований
▁оппозиционе
▁выиграла
▁мете
▁интерне
ила
мир
▁спорт
▁бирже
делец
▁фини
цер
▁игоря
▁хол
▁поэ
▁клю
▁юрия
седа
▁бизне
ору
хим
▁великобрита
one
тому
доров
▁ждут
▁ав
▁примет
пова
годня
▁несколь
▁переигра
▁масшта
▁аэ
▁бла
-2012
▁акт
▁олимпиады
финале
▁страте
▁вме
▁сконча
защит
▁фигу
▁прои
таллу
ект
▁сообщают
▁арестован
нологи
▁сезо
▁посвя
▁велико
манчестер
зенит
▁пообеща
▁испа
▁рассказа
лимпи
▁инвесторы
▁теа
▁предпри
▁неме
дд
▁проиграл
рены
моби
ляр
езде
ружи
▁миниму
▁раск
секре
▁титу
ссий
▁корпорация
сут
▁итоги
▁сыграет
▁брита
циали
джет
▁олимпийских
прия
реал
клон
▁наза
▁ответствен
▁прово
хэм
ams
тб
▁нба
▁кириленко
▁титул
▁состои
▁обвинил
▁предварительным
▁ап
▁смарт
▁япо
▁президен
ттен
▁заключитель
▁мадрид
▁полузащит
-20
▁ны
▁втор
ракт
гут
▁неде
▁намерена
▁премь
питали
▁суббо
шлось
мь
▁режиссе
судар
▁компен
▁лондо
▁сою
▁оль
▁ове
▁раскрити
▁одержал
▁шарапова
хра
▁ини
xx
мокра
▁юлии
ace
▁обвиняют
вобо
▁павла
▁полагают
▁пав
▁уверя
▁англи
валифика
..
▁поправ
ерен
▁вече
зиден
локо
▁спортс
трен
арсенал
▁конф
▁завершился
спарта
▁павлю
▁госдуме
менти
арсе
▁огра
офи
▁избе
▁испо
▁ребен
рори
вашинг
▁юнайтед
▁победил
▁хокке
▁выезде
▁второ
село
▁вене
▁евге
▁проведет
▁овертай
▁лука
ффектив
▁одоле
▁вничью
▁уступил
кус
дете
зне
ленко
чел
смотреть
кви
держан
веду
▁скан
pp
веря
стр
▁201
▁признают
▁отметился
▁готовится
//
ср
▁израи
лиш
варти
вард
льщи
▁гостях
▁возбужде
▁проиграла
▁вера
два
▁wb
▁венесу
стаи
стои
интере
▁кризи
▁обыграл
▁алекс
жида
▁выяснили
чью
джерси
―
▁необ
▁шара
более
▁иго
обре
▁обыгра
▁пери
жай
структу
▁старту
▁пое
суди
кей
ответ
▁придет
▁конку
стива
ститу
▁wta
▁гибе
проку
▁генпроку
▁выставка
роны
щер
чина
▁обещают
рито
▁рассмо
обе
▁вя
ros
йца
▁правозащитники
сследова
▁протя
берна
£
мыш
▁регулярного
защи
▁дональ
ссер
▁полуфинал
публи
финал
ака
сколь
риан
▁подозревают
твер
гей
▁группового
пру
честер
москов
ссиона
_
дине
▁мошен
▁воскрес
▁возмо
майами
сшта
▁четы
▁обыграв
ft
▁распро
▁руко
▁веро
▁време
нба
▁благода
▁обыграть
▁понедель
скоре
▁разгроми
▁обыграла
неш
раи
▁сма
виси
▁хоккею
недель
ами
джета
▁мадри
коно
рити
ook
пании
перь
▁ассо
брита
круг
▁разгро
тиво
▁предупреждают
▁стру
(
▁скри
зульта
▁зару
стоит
хл
▁кири
семь
разви
?!
zz
▁app
терна
"
hone
утбо
надле
▁итали
страда
льян
▁яко
▁витали
▁мос
лайн
кнове
▁порту
▁поче
рица
!!!
бороны
book
▁воскресень
весто
ксуаль
▁законо
▁кото
gle
вью
▁доку
худ
конча
▁воск
найтед
▁дми
▁кате
▁поги
▁полномо
ничто
тп
oft
▁истре
▁эки
выбор
▁сс
▁разгромил
ссажи
жнему
`
обеща
▁росси
­
офис
новь
▁биат
гатив
движи
▁впер
▁face
▁баскет
é
чс
скет
▁неско
▁сорев
▁mic
▁мл
▁рань
▁неф
▁goo
*
•
@j
катери
служа
евра
▁рес
і
xxx
▁цере
